10101000001010110000000010000001
01000000000100000001000000010000
01010000010000000000000000000000
01010000110000000000000000000000
01011000010000000000000000000000
01011000110000000000000000100000
01101010100000111001100110011001
01101000100001000000000000000000
01101001100001000000000000011110
01101010100000000000000000010000
01010001010001110000000000000011
01010010010001110000010000000000
01010010110001110000000000000000
01011001010001110000000000000011
01011010010001110000010000000000
01011010110001110000000000000000
01010001010010000000000000000000
01010010010010000100000000000000
01010010110010000000000000001100
01011001010010000000000000000000
01011010010010000100000000000000
01011010110010000000000000001100
01010001010010010000000000000000
01010010010010010100000000000000
01010010110010010000000000001100
01011001010010010000000000000000
01011010010010010100000000000000
01011010110010010000000000001100
01010001010010100000000000000110
01010010010010100010000000000000
01010010110010100000000000000000
01011001010010100000000000000110
01011010010010100010000000000000
01011010110010100000000000000000
01010110010000000000000000000000
01010110110000000000000000000000
01010011010101100000000000001101
01010100010101101110000000000000
01010100110101100000000000000000
01010011010101110000000000000001
01010100010101110001000000000000
01010100110101110000000000000000
01010011010110000000000000000000
01010100010110000000010000000000
01010100110110000000000000000000
01010101010111110000000001000000
00001111000000000000000000000000
01100000010000000000000000000000
01100100010000000000000000000001
01100000010000010000000000000000
01100100010000010000000111000000
01100000010000100000000000000000
01100100010000100000000000100000
01100000010000110000000000000000
01100100010000110000000000010000
01100000000000000000000000000000
01100100000000000000000000000001
01100000000000010000000000000000
01100100000000010000000111000000
01100000000000100000000000000000
01100100000000100000000000100000
01100000000000110000000000000000
01100100000000110000000000010000
01100000011000000000000000000000
01100100011000000000000000000001
01100000011000010000000000000000
01100100011000010000000111000000
01100000011000100000000000000000
01100100011000100000000000100000
01100000011000110000000000000000
01100100011000110000000000010000
01110001000000000000000000010000
01110000011000000100000000000000
01110001001000000000000000000001
01110000011000010100000100000001
01110001010000000000000000001110
01110000011000100100001000000010
01110001011000000000000000000010
01110000011000110100001100000011
01110010001000000000000000000001
00000000011000000100000000000000
10101110001010110000000000000000
01100000011000000000000000000000
01100100011000000000000000000001
01100000011000010000000000000000
01100100011000010000000111000000
01100000011000100000000000000000
01100100011000100000000000100000
01100000011000110000000000000000
01100100011000110000000000010000
01100000100000000000000000000000
01100100100000000000000000000000
01100000100000000000000000000000
01100100100000000000000000000000
01100000100000000000000000000000
01100100100000000000000000000000
01100000100000000000000000000000
01100100100000000000000000000000
01100000010001000000000111000000
01100100010001000000000000000001
01100000010001010000000111000000
01100100010001010000000111000000
01100000010001100000000111000000
01100100010001100000000000100000
01100000010001110000000111000000
01100100010001110000000000010000
01110001000000000000000000010000
01110000010001000110000010000000
01110001001000000000000000000001
01110000010001010110000110000000
01110001010000000000000000001110
01110000010001100110001010000000
01110001011000000000000000000010
01110000010001110110001110000000
01110010001000000000000000000001
00010000010000010110000010000000
01011110010000000000000111000000
01011110110000000000000000000000
01011011010101100000000000001101
01011100010101101110000000000000
01011100110101100000000000000000
01011011010101110000000000000001
01011100010101110001000000000000
01011100110101110000000000000000
01011011010110000000000000000000
01011100010110000000010000000000
01011100110110000000000000000000
01011101010111110000000001000000
00001111000000000000000000000000
10101100001010110000000000000000
10110000000000000000000000000001
