10100000000101000000000010110100
11010100010000000000000000000000
11011100010000000000000000000000
11100100010000000000000100111010
11010000000000000110000000000000
11011000000000000000000000000000
11010000110000000001000000000000
11011000110000000000000000000000
11010000010000000000000000000000
11011000010000000000000001000001
11010000100000000000000000000000
11011000100000000000000000000000
10010000000000000000000000000000
11000000010000000000000000000000
11001000010000000000000000000000
11000000000000000100000000000000
11001000000000000000000000000010
11000000110000000000001000000000
11001000110000000000000000000000
11000000100000000000001000000000
11001000100000000000000000000000
10010000000111000000000000000000
11000000110111000000001000000000
11001000110111000000000000000000
11100000110111000000000000100000
10010000000000010000000000000000
11000000010000011100001000000000
11001000010000010000000000000001
11000000000000010000000000000000
11001000000000010000000000000000
11000000110000010000000000000000
11001000110000010000000000000000
11000000100000010010000000000000
11001000100000010000000000000110
10010000000000100000000000000000
10011000000000100000000000000100
11000000010000100000000010000000
11001000010000100000000000000000
11000000000000100100000000000000
11001000000000100000000000000010
11000000110000100000000000000000
11001000110000100000000000000000
11000000100000100000000000000000
11001000100000100000000000000000
10010000000000110000000000000000
10011000000000110000000000000110
11000000010000110010110100000000
11001000010000110000000000000000
11000000000000110100000000000000
11001000000000110000000000000010
11000000110000110000000000000000
11001000110000110000000000000000
11000000100000110000000000000000
11001000100000110000000000000000
10010000000001000000000000000000
10011000000001000000000000000101
11000000010001000000000110000000
11001000010001000000000000000000
11000000000001000100000000000000
11001000000001000000000000000010
11000000110001000000000000000000
11001000110001000000000000000000
11000000100001000000000000000000
11001000100001000000000000000000
10010000000101110000000000000000
11000000000101110100000000000000
11001000000101110000000000000010
11100000000101110000001001000000
10010000000001010000000000000000
11000000010001011010010000000000
11001000010001010000000000000001
11000000000001010000000000000000
11001000000001010000000000000000
11000000110001010000000000000000
11001000110001010000000000000000
11000000100001010010000000000000
11001000100001010000000000000110
10010000000001100000000000001101
11000000010001100000000100000000
11001000010001100000000000000000
11000000000001100000000000000000
11001000000001100000000000000000
11000000110001100000000000000000
11001000110001100000000000000000
11000000100001100000010000000000
11001000100001100000000000000000
10010000000110000000000000011011
11000000100110000011100000000000
11001000100110000000000000000000
10010000000110010000000000000000
11000000100110010000010000000000
11001000100110010000000000000000
11100000100110110000000001000000
10010000000011100000000000011101
11000000010011100000111100000000
11001000010011100000000000000000
10010000000011110000000000000000
11000000010011110000001000000000
11001000010011110000000000000000
11100000010100010000000000100000
10010000000001110000000000000111
11000010010001110000000000000000
11001010010001110000000000000000
11000010000001110000000000000001
11001010000001110000000000000000
11000010110001110000000000000001
11001010110001110000000000000000
11000010100001110000000000000001
11001010100001110000000000000000
11000011100001110000000000000001
11001011100001110000000000000000
10010000000010000000000000000000
11000010010010000000001111000000
11001010010010000000000000000000
11000010000010000000000000000000
11001010000010000000000000000000
11000010110010000000000000000000
11001010110010000000000000000000
11000010100010000000000111000000
11001010100010000000000000000000
11000011100010000000000111000000
11001011100010000000000000000000
10010000000010010000000000000111
10011000000000100000000000000000
11000010010010010000000000000001
11001010010010010000000000000000
11000010000010010000000000001000
11001010000010010000000000000000
11000010110010010000000000000000
11001010110010010000000000000000
11000010100010010000000000000000
11001010100010010000000000000000
11000011100010010000000000000000
11001011100010010000000000000000
10010000000010100000000000000010
10011000000000110000000000000010
11000010010010100000000000100000
11001010010010100000000000000000
11000010000010100000000011000000
11001010000010100000000000000000
11000010110010100000000000000000
11001010110010100000000000000000
11000010100010100000000000000000
11001010100010100000000000000000
11000011100010100000000000000000
11001011100010100000000000000000
10010000000010110000000000000010
10011000000001000000000000000001
11000010010010110000000000001000
11001010010010110000000000000000
11000010000010110000000001000000
11001010000010110000000000000000
11000010110010110000000000000000
11001010110010110000000000000000
11000010100010110000000000000000
11001010100010110000000000000000
11000011100010110000000000000000
11001011100010110000000000000000
10010000000011000000000000011011
11000010010011000000000000100000
11001010010011000000000000000000
11000010000011000000000000000000
11001010000011000000000000000000
11000010110011000000000000000000
11001010110011000000000000000000
11000010100011000000000000010000
11001010100011000000000000000000
11000011100011000000000000010000
11001011100011000000000000000000
10010000000011010000000000000001
11000010010011010000000000001000
11001010010011010000000000000000
11000010000011010000000000000000
11001010000011010000000000000000
11000010110011010000000000000000
11001010110011010000000000000000
11000010100011010000000000001000
11001010100011010000000000000000
11000011100011010000000000001000
11001011100011010000000000000000
10100100000101000000000000000000
10101000000101000000000000111110
01000000000100000001000000010000
01011000011000000000000000000000
01011000111000000000000001000000
01101010100000000000000000010000
01011001011001110000000000000000
01011010011001110000001000000000
01011010111001110000000000000000
01011001011010000000000000000000
01011010011010000010000000000000
01011010111010000000000000000110
01011001011010010000000000000000
01011010011010010010000000000000
01011010111010010000000000000110
01011001011010100000000000001101
01011010011010100000010000000000
01011010111010100000000000000000
01100000000000000000000000000000
01100100000000000000000000000001
01100000000000010000000000000000
01100100000000010000000111000000
01100000000000100000000000000000
01100100000000100000000000010000
01100000000000110000000000000000
01100100000000110000000000001000
01100000100000000000000000000000
01100100100000000000000000000000
01100000100000000000000000000000
01100100100000000000000000000000
01100000100000000000000000000000
01100100100000000000000000000000
01100000100000000000000000000000
01100100100000000000000000000000
01100000011000000000000000000000
01100100011000000000000000000001
01100000011000010000000000000000
01100100011000010000000111000000
01100000011000100000000000000000
01100100011000100000000000010000
01100000011000110000000000000000
01100100011000110000000000001000
01110001000000000000000000001000
01110000011000000000000010000000
01110001001000000000000000000001
01110000011000010000000110000000
01110001010000000000000000011100
01110000011000100000001010000000
01110001011000000000000000000010
01110000011000110000001110000000
01110010001000000000000000000001
00010000011000000000000010000000
10101110000101000000000000000000
01011110011000000000000000000000
01011110111000000000000000000000
01011011011101110000000000011011
01011100011101110011100000000000
01011100111101110000000000000000
01011011011110000000000000000000
01011100011110000000010000000000
01011100111110000000000000000000
01011101011111110000000001000000
00001111000000000000000000000000
10101100000101000000000000000000
10110000000000000000000000000001