10101000000110110000000001101101
01000000000100000001000000010000
01011000010000000000000000000000
01011000110000000000000000100000
01101010100000011001100110011001
01101000100000100000000000000000
01101001100000100000000000011110
01011001010001110000000000000000
01011010010001110001000000000000
01011010110001110000000000000000
01011001010010000000000000000000
01011010010010000100000000000000
01011010110010000000000000001100
01011001010010010000000000000000
01011010010010010100000000000000
01011010110010010000000000001100
01011001010010100000000000001101
01011010010010100001000000000000
01011010110010100000000000000000
01100000000000000000000000000000
01100100000000000000000000000001
01100000000000010000000000000000
01100100000000010000001110000000
01100000000000100000000000000000
01100100000000100000000001000000
01100000000000110000000000000000
01100100000000110000000001000000
01100000100000010000000000000001
01100100100000010000000000000000
01100000100000010000000000000001
01100100100000010000000000000000
01100000100000010000000000000001
01100100100000010000000000000000
01100000100000010000000000000001
01100100100000010000000000000000
01100000010000000000000000000000
01100100010000000000000000000001
01100000010000010000000000000000
01100100010000010000001110000000
01100000010000100000000000000000
01100100010000100000000001000000
01100000010000110000000000000000
01100100010000110000000001000000
01110001000000000000000001000000
01110000010000000000000010000001
01110001001000000000000000000001
01110000010000010000000110000001
01110001010000000000000000001110
01110000010000100000001010000001
01110001011000000000000000000001
01110000010000110000001110000001
01110010001000000000000000000001
00000010010000000000000010000001
10101110000110110000000000000000
01100000010000000000000000000000
01100100010000000000000000000001
01100000010000010000000000000000
01100100010000010000001110000000
01100000010000100000000000000000
01100100010000100000000001000000
01100000010000110000000000000000
01100100010000110000000001000000
01100000100000100000000000000010
01100100100000100000000000000000
01100000100000100000000000000010
01100100100000100000000000000000
01100000100000100000000000000010
01100100100000100000000000000000
01100000100000100000000000000010
01100100100000100000000000000000
01110001000000000000000001000000
01110000010000000100000010000010
01110001001000000000000000000001
01110000010000010100000110000010
01110001010000000000000000001110
01110000010000100100001010000010
01110001011000000000000000000001
01110000010000110100001110000010
01110010001000000000000000000001
00000111010000000100000010000010
01000000000100000001000000010000
01100000010000000000000000000000
01100100010000000000000000000001
01100000010000010000000000000000
01100100010000010000001110000000
01100000010000100000000000000000
01100100010000100000000001000000
01100000010000110000000000000000
01100100010000110000000001000000
01110001000000000000000001000000
01110000010000000100000010000000
01110001001000000000000000000001
01110000010000010100000110000000
01110001010000000000000000001110
01110000010000100100001010000000
01110001011000000000000000000001
01110000010000110100001110000000
01110010001000000000000000000001
00110001010000000100000010000000
01011110010000000000000000000000
01011110110000000000000000000000
01011011010101100000000000001101
01011100010101101110000000000000
01011100110101100000000000000000
01011011010101110000000000000000
01011100010101110001000000000000
01011100110101110000000000000000
01011101010111110000000100000000
00001111000000000000000000000000
10101100000110110000000000000000
10110000000000000000000000000001
