10101000001101000000000001000001
01000000000100000001000000010000
01011000011000000000000000000000
01011000111000000000000001000000
01101010100000000000000000010000
01011001011001110000000000000111
01011010011001110000000100000000
01011010111001110000000000000000
01011001011010000000000000000000
01011010011010001000100000000000
01011010111010000000000000000001
01011001011010010000000000000000
01011010011010011000100000000000
01011010111010010000000000000001
01011001011010100000000000000110
01011010011010100000100000000000
01011010111010100000000000000000
01100000000000000000000000000000
01100100000000000000000000000001
01100000000000010000000000000000
01100100000000010000000000011100
01100000000000100000000000000000
01100100000000100000000000000100
01100000000000110000000000000000
01100100000000110000000000000100
01100000100000000000000000000000
01100100100000000000000000000000
01100000100000000000000000000000
01100100100000000000000000000000
01100000100000000000000000000000
01100100100000000000000000000000
01100000100000000000000000000000
01100100100000000000000000000000
01100000011000000000000000000000
01100100011000000000000000000001
01100000011000010000000000000000
01100100011000010000000000011100
01100000011000100000000000000000
01100100011000100000000000000100
01100000011000110000000000000000
01100100011000110000000000000100
01110001000000000000000000000100
01110000011000000000000010000000
01110001001000000000000000000001
01110000011000010000000110000000
01110001010000000000000000000111
01110000011000100000001010000000
01110001011000000000000000000001
01110000011000110000001110000000
01110010001000000000000000000001
00010000011000000000000010000000
10101110001101000000000000000000
01011110011000000000000000000000
01011110111000000000000000000000
01011011011101110000000000000110
01011100011101110011100000000000
01011100111101110000000000000000
01011011011110000000000000000000
01011100011110000000100000000000
01011100111110000000000000000000
01011011011110010000000000000000
01011100011110010000000100000000
01011100111110010000000000000000
01011101011111110000000000010000
00001111000000000000000000000000
10101100001101000000000000000000
10110000000000000000000000000001
